BC04F095
BE13048A
BF3F609E
BE4FF21B
BE53E037
3E1E7968
3E5AA25E
BEEB708B
BEA966BE
BE896E37
BF0F60D0
3EB2934B
BEDA75AB
3F378FAC
BD63CD9A
BF69361E
3D83BABA
BCA5D28D
3D99D12D
3E219C9D
BDF9042E
3EACE2D2
BE3C4E2F
3F2921DE
BD31BAC3
3F59EA68
BF299264
BE89CC75
BEF2515D
BEA6DE55
BEE9AB08
3E70AE10

