3C03BE66
BEA78594
BEF4B33E
3BBCAD9B
BF4D9FA1
3F1E2A80
BD68A937
BF015BCD
BC567BA2
BED61177
BE7AD363
BDFD4281
BDF3DFB1
BE3E29B7
BF585B5B
3E42EDBB
3F36A51E
BDC48A59
BE8C7C31
BE09068A
BF054CFD
3F195CFB
3EB7368B
BE92D29A
BE193FAF
3EC46C76
3E907D91
3F2FD231
BDAE3A3B
BF01F1BF
BEEB864D
BCC60ED8

