3D4372E7
3DEE4862
B7F34507
BC2CC0BE
3EA396F2
BCCE336A
BEC414E8
BE9C560C
3D946D40
3D58D691
BF100219
BE170DA6
BE4BCDBC
BEB7B58D
3E9983F9
3EE079C4
3DB6390D
3D1713AD
BE9CBA30
BDAC4A41
3EA3CEC8
BE773861
BD28112C
BE566517
3DE5A922
3B3039EF
BCD24BFD
BD084620
3E7046C7
3DDAA36A
3EF05A92
3E97E111

