3DB4FF86
3E281733
BE1E9D0F
3E96E654
3EA6D3FA
3E1BB9D0
3E803E21
BEF4F074
BEDD1A00
BE869058
3D7A4724
BC84CAD5
3D1DC619
BEE944CC
3E0B5782
BF5D1AFC
3E12CB21
3E1B2FA9
BF330015
3F0BA2CF
BD7CDAB2
BE973083
BE180A5B
BC28EF78
3E7F401C
3E0F498C
3DCAFA2F
3F357DBF
BF400FDC
3F2B486F
BE30DE8F
3ECCFF22

