3F3C4D44
BF6A3A19
3E907FCC
BED79A4A
3DB32A49
3F13777D
BEC85E81
BC88A04D
BF19693C
BE41EDE1
4008D70A
3D3FD934
BF091FE6
BE12424A
BE4FABDA
3F150D7C
BCD03969
3E54D76B
3E8DF82B
BF6B3722
3FB6DD48
BE9287A0
BF569B17
3E3E04C0
3ED614BE
3F301217
3F44508B
3F197311
3F3461D8
3F170942
BE8D8559
BF14DDD7

