3E2C18B5
BD59780C
3DFC675A
BE745027
BD04F3BA
BF2558DA
3E49591D
3F59B424
3E05F352
BAC50050
3EF7DA62
3D810C6F
BE947A5B
3EA267A5
3EBF98FA
BEBED506
BE1A172B
3E3CD78C
3E42A6B1
BE22E83A
BF263BCD
3F2C2907
BDD6D656
3F2DE8A3
BEBA1577
3C1B8887
3E2B72C5
3E9649B2
3E943E10
BF3459C9
BEAA3F8A
BE246845

