3E155821
3D4FB54A
3E0A93AF
3D84028E
BDBFB7A6
3E7F2389
3E11C001
3BB2D906
BEEC0FCB
3E94EAD1
BDA0C522
BD961ED6
3B9F1F15
BE8EC8D6
3D06CEBC
3F0D5B57
BEF8F3ED
3E77E6F7
3DFE7211
3E15EDD0
BEDDE918
BDB528F2
BBD70E6F
BDFC1CE7
3E56A338
3E20ECFA
BDBDC400
3D627E0F
BE6F2D3C
BE9AE5BD
BDBC9603
3ECF51CE

