3DF585BE
3FAB034B
BF408D09
BDCB0100
3EE0FDC1
BDB17D6B
3F3148BB
BDF62739
BEE1CFDD
BE09C7BD
BEA1656F
BE96AE5C
BE8C5BAF
3ED7991C
3E3DE093
BED6160E
3DC2C1B1
3E571C54
BF82B4B7
3EC6EC18
BE09142B
BF5F19C6
BE50F1B2
3E93A4B5
3E1E7CD0
BEC733CA
3EDD8149
3E3393EE
BDD35009
BEF1044F
3F0000DA
3E71B047

