BEE7E77D
3E2803CD
BECB5F1C
3EB2F599
BE01E8A3
BF138B69
3F3CA537
3EE1A71A
3DEF0F17
BF23B720
3E5A7FC3
3CDA35D6
3D6C14C6
BF613CAC
3EC00000
3D5BC01A
BC8DF373
3E378078
BF48CC79
3E203B3F
BF870C13
BEB12BC3
BF6D0F62
BB8FEAC4
BEA0852B
BF33E7D1
3E2486F0
BF14AAEB
BF0442D9
BF8E13BA
3F075CC0
BEA4C07B

