BE183516
3F0B7B7C
BF1CE94F
3ECA324D
3E014F8B
BF6222B4
BDEFA7A8
BF1B79C8
BF27AD2A
BEDF774B
BF184DEC
BDF50A89
3EE59989
3F1C37A4
3ED7AE9B
BD89CA9F
BD874E23
BF669D41
BE178E9F
3EDFE692
3EEAD85E
3F806CDB
BE840C20
3D955AC0
BF2AB075
BE691C08
3EFFE38F
3E2ACF31
3E2CEB35
3D3CF4E8
BDEE136E
BE70880E

