3F1A4606
3F67AA15
3D9F30E8
3E5984A1
BE2CA31E
3F72CF10
3E25A3E4
BE8DCF68
BDD6D3B7
BEEA515D
3E52FAD7
BEAC1DD2
3EF01D7E
BEACD5D8
BECDDD90
3E8C9C0B
BEA52674
3DFCC07B
3E38E4B8
3F6DB003
3EAAE89F
BF695B68
3D83821B
BD5AF188
40091130
3F79BB49
3C140BBB
BD538690
3E883E42
BD13D85A
BE172581
3E8CA772

