3F350D9D
3E9A61BF
3D3A8C58
3DD3CBC5
3EFC7000
BECF5793
3E36933A
BEE45DEA
BF888AC6
BEE5CB79
3E633ACD
3F66A583
3F43C9AC
BF32C387
3E82BD5E
3F443B1D
BD76DFC6
3F385BAF
3F9B25D5
BF2A07E6
3D3F1950
3EAEB1E6
BFBD57C5
3F526E76
3D6F1993
BE0FC697
BE07B5F2
BE95DA49
BF223F79
3F1C9279
3E7D29DC
BE771EB0

