3F2E40A7
BF03EC46
BE659D13
3C866E44
3FC1E8A3
3C971194
3EAB5116
3D60B0AF
BC1DE050
3D64095F
BD9A7B0B
BE84406C
3F7A8134
3E3116A9
BE91F03D
3E19068A
3F0170A4
3EB7E197
BDFF7271
BE742D49
3DE21EA3
3E8839EF
BE45E17E
3C06A8FC
3D088B54
3F13FE6D
BF1DABD2
BED9335D
3E8B7308
3DD6EC5B
3FB02742
BC736695

