BDD343FA
BF429414
BF061459
3EC9E4B4
3EAAD213
BD9A4F87
3E9D53CE
3E336FC1
BE746951
3E100581
3E416ACF
3EE13576
3EBB1C65
BE1F6380
BEE37500
BED3D72C
3E7C32EC
3E94F7EC
BDC5425F
3E0A67A5
3BB48D3B
BE8A8C58
3E5E8102
3E549ADD
BEFD2418
3E263066
3DF9B0AB
BF1AE44B
BF0F3B86
3EFEE265
3EA41C3F
3D37E804

