BF86E19C
3E6B341E
3D371865
BD98BCE0
3C4FC82A
3E9E5A14
BE0D712A
3D720429
3EFA8E71
3C1CBEE8
BD93A040
BE830DB7
BE81E3C9
3DE81238
3D9C7B46
3D923CC9
3E39185D
3C4A2DB6
BEB9819D
3E987AAF
3F19B339
3E12CADE
BE490753
BD751EFB
3E6A86D7
3F3D0FA6
BD5B9D80
BE62D1AF
BF29740C
BE074FF8
3DEFF002
BF29521A

