3F4CF67B
3EF7C569
BE326FA4
3E435EFA
BEDBD31C
BF42E83A
3D0BD556
3CA6CA04
3D9F7729
3F017E89
3E1C5F7C
3F30C38F
3EEF4CB2
BF30B839
3E265237
3E72B27D
BF431B9B
BF094C23
3E568449
3EBCA0E4
BEB8EEAF
3EF0C975
3E7DFEFC
BE43AEAB
3E1D1AA8
3E90CC79
3FC83EE2
BE0D2029
BEBB139D
3EDCB945
3DB08249
BDBE44FA

