3E9D24E1
BEA7CCC0
3AF96E16
BEEA5C81
3EC2641B
BE941ACE
3EB76A72
BE9EA099
3E114C66
BE70E7FF
3F484C06
BEE86EA0
3F5F3D29
3D069A4E
3E558106
BF587C74
3ED155F8
BE2EEE52
BE4A6B51
3D953BD1
BCC3E74B
3F26CCC4
3DD64841
BF1A60F6
3E4ED8D3
3E9E789E
BE7EE4E2
3EC0151A
BDD3ECCC
BE148DC1
BDA7F1B7
3E8056E7

