3ED64778
BE07BAAA
3D86A7F0
3E8217B1
3E004A73
3E8489D2
3C9E4713
3F240453
BED96484
BEDFF130
3EE0E193
3E8244A6
3E4C72E2
BE8BD8E0
3E5D2E0E
BE74EB9A
BED795B3
3F2943E1
BC54DC66
3EC70C78
BEDC9ABB
3E0CAFB4
BDBE175D
3E24E54F
3F284428
BE864884
BD25A145
3E01A8EF
3C546F58
3DD226C4
BDDD7B20
3DF45953

