3E7A326E
3EB89657
BE05896A
3E5CF0FA
3D4D2C38
BDD1CF35
BCCD20B0
BE4F0175
BB972043
BEE8B0F2
3EA31705
3E008701
3E938994
3D175AFB
3CFD47BF
3E7DE8F7
3E9A51E3
3CCBE1EB
BE6B51BD
3DC21188
BE45A294
3DAD2029
3D8FCD68
BCB66D7A
BE30F1B2
BC4C89B1
3DFE279E
BC7C4C16
BD4E5B42
BE1A4F44
BE47B203
BE2F0132

