3DEAF039
BE9BECAB
BF03F5C7
BEE75A10
BD7A0F91
BF60E4A8
BF37D75E
BE983340
BF7452F8
BD6C5C14
BEF3ECEE
BE882060
3EE9ECD5
3E3D9557
BEA5DDD3
3C8FE261
BEB19568
BCE17A03
BEB4F872
3ED8B4E1
3F31CBBC
BE8BFA8F
BE38AB93
BF3673F7
BD0B8499
3E9C912A
BF8D3943
3F01A273
3F8F0996
3F900304
BEB9DE48
BF5232B1

