BEA6AC00
BDDB3E9A
3F319770
3EDE2B8C
BE8A80AE
3E4831F0
3E586057
3F01D2E1
BED6F284
BF5AAF36
3ECE414E
3F6463F1
BDAC1FC9
BDFBD6A6
BF02A7F0
3EB7251C
3E535979
BE31A5CA
3E0D7B20
3F96E8D9
BE93A4B5
BDD292C5
3F879F2C
3C1331A1
3F24488C
3E0D40AB
BE9FDBF5
BF1A6491
BCE594AF
3E75510D
3BE9A2C6
BAEFBB0E

