BEBF4E23
3E5713F0
3EC63BCD
BF3B7E3D
BE2636F4
BF329835
3F0673D6
3D044BF5
3E6986BA
3EFCFBDB
3F8F38F8
3E4C01A3
3D15B899
3E8CC0DF
BE4F3E47
3ED08B97
BF630B28
BF224B99
BF278477
3F647315
3DC02321
BD860781
3FA1AE1D
3F119179
3C610CF6
3ED5D1A2
3F294728
3EBE2E4D
3E508356
3E3C86CF
BE23D790
3F1C304D

