3F9085C2
3E764DC2
BF134BE8
3F3A1390
3C990AFE
BE994B38
3F64825A
BE3E1E71
BDFD12CB
3EDE43AA
BEC16399
BEB04DFD
BE15A922
3F95373B
BE05757D
BF08BC8C
3FF72E17
BF2690CD
BE512945
BF083A32
BF3176BC
3FD47C18
BD446A5D
3EA7CC3A
BEA78338
3F47FF47
BFE6B008
BE961805
BE89A522
3F3B2208
C018E03F
3EE59F0A

