BC8893B8
BE31DDE3
BCBE48A6
BF10D035
BF29BEB2
BF717785
3D9337EB
BF4AFFC1
BD9927D4
3F5570E7
3F033062
BD96E8B0
3EAC5C57
3D38487C
BF828CDF
BFAFA683
BF18C0BE
3F254A4D
3E1368AD
3F1CEB35
BEA3779F
BF1EBBDC
3DA127B3
BE418330
BF56A034
3F36E05D
3E6F51AD
BF10E0A8
BEE92E41
3E060179
BDD65343
BE93FC22

