3F01BAA1
3DDD69D3
3F887935
BEC5308C
3F986623
3EBAF76E
3F4D81AE
BE6FFB48
BF2B1961
BEAFCF1C
3E5238DA
BF18D706
3F7E310E
BF121A3F
3D8155D6
BDEB73D2
BE8C1D8F
3E06E4C1
3E003A32
3F0B13F0
BEBA1B19
3EA28E2E
3F6AEC07
BFC5B9D8
3DADCFCC
BE07B070
BEBB721D
3ED50657
3DE99C7C
3DDE939F
BF90EE74
3D2733EC

