BE71DC94
BF4383F1
BF0DE493
BEEFD60F
BE5D8ADB
BE477C03
BE97F3AE
BF86D0E5
3DF85AD5
BFB0F1F5
BF1AA077
BF0F8F36
BF2CA44C
BE563DC5
BF04ECD9
BF18D66F
BDA59AFA
BF229510
BF16F7E4
BF367D35
BF781D8F
BE5A2DB6
BF558F50
BEAB5E0F
BEB8A2A9
BEEA9A80
BE90C804
BE1883FD
BF3D46F6
BE70663C
BDBC10D8
3E420F2C

