BF91DA0E
BEB3BC6F
3E0FDB0A
BE9B20B8
3ED692D5
3E8F7857
3DF89E77
3E95204B
3E5EEE0F
3FBE0A52
3F0484B6
3F4ED98C
BF0609AB
BF2C5B5B
3C91DBCB
BD8B1359
BDD25700
BDADE6DE
BE7EF7C2
3EB5D1E5
3F5B4A12
3F039D6F
3F3A0AD9
3E423854
3D8667F9
3F106801
3F9EDCCA
BDF905C0
BD720429
3F28D877
BE6E15CA
3E6727DD

