3EB1C0CA
BEFCB03A
3F71D851
3E679182
3E7CF0FA
3ED1A587
BE1822FF
BBEA1837
BDCC28B3
BE2BD2FA
3E28D10F
BD06466B
BF179FA9
3F4729E5
3CB0F27C
3F0665F1
3ECD88E3
BE7D4131
3D24C2F8
3EB0880E
BDB0F51B
BC4A2553
3F4D12BA
BFBB0A89
BE9AC472
3EBD94F2
BDED40AB
BDD41A69
BEF2C3CA
3E083772
BFB068B2
3E9D6DC2

