3EBB37CA
3DBBC233
3EB201CD
3D955EF2
BED71D1D
3EEF073A
BEC59E84
BE951612
3E90ED1C
3EA40FAA
3D6CD9E8
BE2BE447
BE5DF8B1
BC189DF1
BDD1C6D2
3E85E4A4
BE67BD06
BE65A7D2
3F179BED
3D88472C
BF47126F
BD75B707
BCA2C882
BE15C5F8
BF305F4A
3D093C8A
BE2C2CA1
3E27FCFC
BE81C8EB
BF45881A
BE2A5050
BEBBA40E

