3DE6E760
BEB55F57
BE193426
BEC7850E
3E5AC797
3E25DDD3
BE6A38FC
BE972F12
BE17ABFC
BDA51090
3E6CA8E3
3E729069
BD489E34
BDE182ED
3E86939F
BF286B27
3E81A2A5
3E7CBD55
3C96659D
BF59ECF6
3D92FCAD
BEDBF9E8
3D775A75
3ED24617
3E7A90CD
BD1F090F
BDE1D324
3D9718EC
3E79CCFB
BED004FB
3F03CA86
3D2D9CF1

