3D89BBF1
3F989A1C
BE100CD8
3F0DC411
BDE051CA
BF96C35D
BEEE1B8F
3DE0F239
BD8979E1
3CCAF2D8
3E0F4B1F
BEE14574
BFA47A3A
BEDD7E89
3E9BCF4F
BF2A2068
3E432B99
BF237E80
BF7C126A
BE605469
3EFE09BB
BEE9463D
3E942678
3F39A32B
3D5CD1C8
BF0E8F3B
BDD5781C
3E857929
BE95DB12
BE6CB5BB
BE5871E7
BF44294A

