3A813CAC
BEFFA1A1
BEE69D30
BE3EB8D8
BE1BEB9E
BF316DA0
BE8BF706
BEF9B9D8
3E007EE1
BFB6295A
BEF33871
BE688D6D
3DE6DBD7
BEAABCD8
3E90BC7B
3D2018A4
BEAE2479
BEF8BB90
BF146D61
3F197343
BFBEC72A
BDA37260
BF8A6413
3C8A82A5
BE54191A
BF09CAD1
BDBCE421
BDB626B3
BEDE9292
BE43E469
BF4BB279
BC46C97E

