BDC812BE
BF19F7B6
3EFC25F2
3E9D2EB6
BE87B784
3F25F2ED
3E379EE0
3DBAB96F
BE6A25D9
3E70AAEB
BF34BF4D
3F49C609
BF0205FF
3E13AE25
BDA09FE8
3E6DB595
3DB3ED52
BEC9C411
BF31F99C
3F204567
BDB50FC7
BDE26FE7
3E1CF3DC
3EC73A36
BE709BB7
BF0FFBAD
3EA7EF9E
3F0C639D
3F3AF534
3C5D82FD
BF4855C9
3EAE1566

