3E236D65
3F315AAF
BE6945FA
3D1245B3
BED18138
BC8B8280
BDDB1E19
BD838195
3E33A711
3C8E3AC1
BF9CC6CE
3F9CDF48
3F838DAC
BE38C79F
BF4F2CA5
3CE3F35A
3F31C6B0
BED82364
BDE9B739
BDBBD838
BF162542
BE37739F
3F569197
BF0CA1F1
BFA61CD6
BFB065C7
BDF5AFB0
3ED78983
BE7C6003
3E484E40
BF9D46F6
BD8213A1

