BE4BB385
BE8A9AC3
3EAF542A
BD512232
3E89FD9C
BF8B70EF
BC9C9B41
3EDB34A4
BE3EECC0
BF4FA53C
BD34538F
BD3F4342
BED66278
3D91E5C1
BF3ADB0E
3ED9374C
BEB8995B
3DEA7829
BF07CBE6
3E12784B
BF90D04E
3ED8D003
BED31A2A
BEC879A3
3F97BBC7
BF1CB567
3C7811F5
BE6EE6FB
BD739B02
BE9B81F9
3EE4F8B6
BF872C5A

