BF7842B7
3EA8285F
BE083BE6
3DB6C7A8
BEE804DA
BE64C405
BC6F0F17
3D58BE73
3E8C4524
BF1AC094
BF7128F2
BE4541D9
BF15F59D
3E2510D4
BF235116
3F7445AA
BE0C6AC2
BDBD4307
B97DC161
3C20AD8A
3DF48F54
3F7D6B98
3E9529DC
3F07C04D
BE2E8640
3E2BBECB
BDB3FE19
BF873062
BEA028A2
3E8D2221
3EE5CC42
BEDF2368

