BF11FC6E
BF26B841
3F38240B
3EA68D33
3F6A2DE8
3D532D6F
BED912BA
BD86490A
BCD75C07
BDECFAF0
BDDB86F4
BE6B5808
3FA615E4
3E9B5F81
3E873A36
BEB7ECBB
3F8D2557
3E951BD6
BE0F7E80
BE26CFC8
3E0F81A6
3E68A82A
BE614CA9
3DC2517E
BE97E75C
BE4706D5
3E91D9B2
BD8BFF47
BF0A72FC
3E99059F
BFAD8F71
3B896DD2

