BE43A9B0
3EF9AB08
BD2AB368
BE947D5F
B88205FF
3D609460
BECAB5A2
3D41B973
3E8D6E05
3EB88356
3DE06EA0
BD163455
3E3599AA
BCEA0FD4
BE2C4695
BE898245
3F36B4A6
BE535504
3D0195CD
BE70D951
3DEBE48A
3EFD3997
BCCC6C55
3E371C11
BE8F4539
BDFB7F9D
3CC86488
BDB5A965
3DE892AB
BE80D21C
3D81F213
3CE7FB26

