3EE9337F
3D1E40C8
3ECA6AA9
3D8A36A0
BFDF88B9
BECF8DD6
BF0946A2
BD3AC604
3F46412D
BE984684
BFAE820E
3EBED5F1
3E852BB2
3E8D02EF
3E0CFBFC
BF8FEF7C
BF9AC2DF
3F0E73C5
BE28027E
3E910060
BF3CFDE3
BF4C9332
3EBB6B09
BF39DBCB
BE9507EA
BEFBA3EC
BEB229A6
3C7A7653
3E5A1230
3F188E7A
BF8F2F88
3EFF1690

