3EA22728
BCED3954
3E98EC31
BE8FD630
BF3DBB9D
BEA3D513
BECF4E66
BEDB7E0B
BE625D8D
3F41D27C
3C814F8B
3F92F2FA
3F40D291
3F13EC25
BC156C0D
BD8F062D
3F72580C
BE150E34
BEE77D0F
3EA03F92
BE17F413
BED1D55E
3F75F612
BF81DC7B
3EDCE033
BECE3B04
3CA6E115
3F40AC19
3C9ACFFA
BE9C64BB
BFC9F2DC
BEFD5800

