3E86264E
3EC2808D
3EAAB92C
BE8B4C1B
3E2C1722
BEF6B0D9
3ED0E2A0
BEC327CC
3F004A94
3F0AEF4E
3E9C5B6C
BF794691
BE533A04
BEC19221
BEC31C00
BE43CB3E
3E5DF43C
BC671CDA
BEA0CD21
3F62B207
3F2AC461
3F41C68F
3E547ED0
BE0E39F7
3EABD556
BD5A1987
BF1C29BF
3D483A97
BF2873BD
3EA72086
BF7E71AC
3FD5CEC8

