BF06B3FF
3E0639D6
3C86EC18
BF0002F3
3FA5E1DA
3EAB72C5
3EA0C1FD
3D1BC01A
3D3EBF23
BD803793
BE36E04C
BE93FFEF
3E43443D
BE815DD5
3E98C88A
3E7201CD
BEC5A78F
3E900779
3E3ACB86
3E9F913F
3E03D923
BE18F8E8
BD18B71C
BE842C1B
3EAC3F1C
BE7672FC
3F07C350
3DB6A162
BDD09742
BD412381
BE744135
BE721816

