BEFB5675
3E399D45
BEDC15B1
3DEBE597
BF96A937
3F227BE5
3E9BC622
BDC9B38D
3DE73605
BEF62DC7
BEEB4E12
3F6B0A4E
BE993554
3E832BDC
3F2C0011
BD8E6F2F
3F1EFD00
BDE543F2
3E4956C1
BE76E32E
BEBE6341
3E9E43AA
BD7B9064
3DAB9347
3E8D349C
3E19CF57
BED80410
BDCCFFA8
BE87164C
BF09C9A3
BE9EBF23
BF26412D

