BEC405B4
BF7699E9
BEDFFD3F
BF9689DB
BD131013
BF731F25
BF1A38EB
BEEEA9E7
BE1C8217
3EA9C51E
BF4CCA0C
BD63C643
BEC2D688
BED4538F
BF011698
BF9BAC79
BE4DA1EC
BED2337B
BEBAAB69
BDEB5137
BF35F84D
3EDDEA25
BF1406D1
BDAF4B62
BE81E061
BF765CF6
BE59CA9F
3DBD2631
BCEC2EFD
BDBE8B3B
BFB47514
BEDCDAD3

