BEBE11DC
BD95A20E
3EFBCC29
3F8EBC5A
BE80F4D8
BEA2A476
3F1C58BC
3E42D949
BE295315
BD0929AA
3E9891E2
3F020D45
BFC49E3D
BCD987C6
3F035B60
3E2B0B7C
3EC75361
3F1D3FE2
3F5287C2
3F349507
3F247FDC
3E94111B
BF01115A
3F398BB5
BF1E4A17
BE3B584B
BE73F141
3EA174E6
BEEFAC3F
3EE50E56
3F430670
3EC15315

