3D4ED1BF
3D21FF2E
3EB686E8
BF375ED9
3D5F0E4E
3EFB8412
BF088473
3E9F210C
3D345BF2
3ECB7953
3EDC9F0E
BF0B4E44
BE443569
3EC1A027
3EF9C3F0
BEE7D999
BF372FA9
3E808744
BDE8C693
BE8D5992
BF9BD92B
3EFA4F01
3D1E68A1
3DC0FBA9
3E89A2A5
BEAFB939
BEEF9208
3EC3D6E9
3C414C66
BF2CD4ED
3EE7AB54
BEC595FF

