3E3B0143
BF1C11E4
3F25ED6C
3F48FB33
BEB8AB0D
3EDFFD61
BF0AE46D
3ECC68CB
3EF78E19
3FDC5B85
3EFF952D
3E82E05D
3E7610F1
BD3A2AD4
3D737EB3
3D9F0A1C
BF282BE9
3F58ED0B
3DE89E34
3D9F290B
3E102C4D
3DE579F2
3F48DA0A
3E9D9F90
3E35CA2A
3EE9F6A9
3F02F199
3EAE3F9A
BEA8EF78
3CCA1AD6
3E6F776C
3E96DE76

