3E3462C3
3F0982BA
3EFA7E0F
3F4A238E
3DEC63F1
3E496E59
3F12EB92
3E2EA748
BE34727E
BE194749
BEF7E026
BFD6DA12
3F35BEB2
BEF01DE2
3F0AC450
BD522C88
3F2134F0
BF7F43A6
3E8151C6
BFE7501A
BF111E11
3D90DE8F
3F0D99CC
3E26ED24
3EB199BB
3F133861
BEEE8188
BF54A15A
3E9C419A
BC404C8C
BFC38ACA
BE5CD530

