BE7D8EC9
3F05D94D
BEAD53EF
BEEF53C5
3D7C5155
BE0D538B
BF07B880
BF1EA5B5
BE35E3DA
BE8F214F
3E945650
3DA3497B
3E830A70
3F5E363B
3F2BDE94
BE9746AA
3F0E0675
3F59FAEC
3E1BA626
BF27D72C
BE052AC7
3E96D4A2
3F5370EF
BE54E8FB
3EEDF677
BFB9F927
3E89797D
BEC1C044
3DB0CFE1
3E905B5B
3DC2FD76
BEF4A255

