BE9E9681
BF504535
BDD5E397
BE759147
3E8E3D81
BE3E5259
BE56A487
BF04BF6E
3EE012E0
3F8BC9C5
BC979BFE
BEF7BFE8
3ED281FE
BD9F6662
BD0853C1
3EA28BD2
3E92C775
BEA3E037
BF095D0B
BE1EFF19
BEBF9CC7
BDDE0D67
BE0E746D
3E958FD6
BF66B442
3DDDC93F
3E8D8362
BF4036DB
BE7A1A0D
3D2B734B
3B3B1AF4
3F29143C

