3EBB90C9
BE6EA4EC
BF8ECA8A
BEA20BC4
BE7E770C
3C1E0A42
3F1DD862
BE329B28
3D188C1E
BD8E7686
3D1A5B96
3D7CB0C0
BEA5E69B
BEE37EF6
BF028944
BE0BCEC8
3E209F62
BEF65C0C
3D5E9D0F
BD801A37
3F6C0714
3F301FC9
3EDDB50F
BF2862A2
3BA8B08E
40167A1C
BF5E6634
BE8F9DD4
3E406AF4
3F0B6567
3F58243E
3F1E5882

