3E9CA7D6
BF64A2A9
BE16CF42
BEE53112
3DD28D86
3E44C33B
BE9316E3
BDD3D966
3EEF3908
3F377553
3DA7E38F
BB73BA77
3E124E59
BEF69AF6
BF5598BF
3F80FA61
BD6F0069
BF5254E7
BF9512C2
3F24AD58
BEBC1377
3F402EFD
3DBE0371
BB9613D3
BF6489F4
3E824873
BF71306A
BED915BE
BF4C75F7
BF1CBD12
BEF3EA0C
3EEB37EB

