BB451117
BE203148
BF174C2B
BE56F156
3CDC2D28
3E2C6A7F
3DFDD441
3EA4F180
3D851C19
BE03FEE3
3E9B7FE1
BE0F6FD2
3DC2C450
BD00229A
3DB65CB3
3E80A0F5
BDED3AE7
BD8028E5
3C5B7282
3FB58245
3D4C21E2
3EA1E237
BDD06A2B
BE8683E4
3E575D14
BD8D551D
3D39D5E5
3E34CEC4
BE05DE59
3EF4C09C
3D9F1173
BE862542

