3E4F0A1C
BF2F16A0
BCA4DD2F
BDB72BCB
3EAC71F8
3D5DCE7D
BD19D020
BE17A073
BE421D97
BEA7E521
BCC08D8F
BD329B28
BE609FE8
BDE4F2AE
3EA777D1
BE575686
BE4D4A1B
3EA8B9DC
3EECCEC4
3E2F826F
BE47DF1A
BD7F876A
BDC80A5B
BBE3B470
3E675D57
3D21FE22
3E19E40D
3EC36BD3
BEBC4D66
BE57867F
3D7296F6
3E3C98A2

