3C9E44FA
BE7560C8
3EBC4EF9
BEB9999A
3E49C5E7
BF071583
BF18B32D
BEC4F26B
BECA2186
BEBE98BB
3E5E5FFA
BEA78B37
3EF617C2
3E6FF1D8
3F0D2C5A
3E40385C
3D8B6417
3DF99E52
3E1089A0
3E9962D0
BE227E0F
BF231759
BF22CC4F
3E9A784B
3D6D97B3
BD42AED1
3DB07421
BEA95D0B
3E8E698C
BE9D1A65
BD9D95DD
BEC584D3

