3E809507
3ED815E4
BD3FFEF4
BD42A887
BD9A237D
3EE468EC
3E0FE2A4
3F152BB2
3F464239
3FAC45ED
BE2A7547
3EDAAE08
BD72B021
3EDD9AD8
BE853A1D
3EF5FB72
BF09C704
3DE39C52
3ED3D6A6
BE99A77E
3F07B02D
3E06B7ED
3F06135E
3CDED070
3EB2C8C5
3F50F52C
3E84C3A0
BE3A9436
3D8EA077
BCBF316E
BE3CA0C3
3F8FFCFC

