3F7BFA2B
BC49ABB0
BEF15832
3E5B7671
3F635B2D
3FAB9AE1
3F042DF1
BFABFA6E
3F741DE2
3D30153C
3E264628
BEB08DF3
3F668CBD
BF1C03CD
3FF5FE65
BEAA77C4
BFD4FFFC
3F4B6F1A
3F20A750
BF2F38D6
BE2434E3
BE11CD60
BD16AAD2
3E853240
3F5F6A2F
BFC389B5
BEE7C02B
3F35CF89
3F7BA744
3FCB1A7E
3FAD1A22
BEAE529C

