3FD1EF63
BF367F80
BF9020DE
3E93400C
3E893101
BED16766
BDA2834D
BE38C6D6
BF0A528B
BF29553F
BFD8745C
BED06C87
BDF8F798
BE4CEA29
3D845133
3D56EBD5
3D943287
BE69B888
BE80E758
BDA2BA5A
BF5D1AA8
3E336545
3ECB6B4C
BE3DF117
3E8DA922
BF1C7560
BD9F559B
BE9F78DD
BE9134AD
BF3111BE
BE8B8A3B
BE4E596D

