3F0ABC1F
BE761998
3E346845
3C9A975B
3FA1EC81
BE8CFAAD
3F3ADE01
BD6671EF
BF07127F
3E8703B0
3EE9B36C
BF257F73
3FB29DAE
3E6A671F
3DE9E450
BD8A90CD
3EA06834
BEBD857B
3E328566
BE19042E
3E706184
BE2AB64A
3F623DA3
3E18C47A
BCA66DBD
BE0E9681
BE2E78E2
3F4BE22E
BDC22D51
3E602364
3E2AD85E
BED61848

