3E33F898
BE1D4C34
3EB74214
3EB91C4C
3EBD629E
BC92B5E5
BEDC7B89
BD75D56F
3D4E4218
BEADD767
BDD3F6C2
3E09DA16
BDD89C5E
3DE94AB2
3F36A77A
BE39B23E
BF604567
3E994C88
BEECA18C
BDB96FA8
3DFD8516
BE354541
BB8D5411
BDA44B6F
3F008041
3C029069
3EABF0FE
3E90DF59
3E7D349C
3D536F7E
BD02A993
3F1A7D35

