3F58A277
3D3AE792
3DE1B2A2
3E69C993
BDB821AF
BE898677
BE2C3C19
BE0335D2
BD1BB8C3
3D6AB25B
BEA41C3F
BDCC2BD8
BEB4BEE8
3EB26A01
BC50FA59
3EDB9410
BF00E27E
BE986317
3E048063
3FBA41DD
3D89EBA7
3EDE759B
3DAC9F30
BED6AD71
BDEB9D3D
3FA1AECD
BEFB178B
BC9F3A58
BEDBB81B
BE58FFB9
BD9342EE
BE628E50

