BD994C88
BF1EA540
BE04523F
BF349071
3DF89A46
3EE119F0
BF054680
BF4130CF
3F084EB5
3F6EABBD
BD97C45D
3DC9BE0A
3E461E93
3F4538BD
BF38D4DC
BF5200E2
BE237154
BF0168B6
BF19D484
BEA75C29
BE4C8EAC
3E891255
BE3D5DC4
3F16DB62
BDB57471
3DC0C38F
3E85436C
BEF9E4F7
BF0856C5
BF02CBEA
BF35AF08
3CDFA659

