3F0B5E85
BC8B588E
3E8F0D20
3F021B09
BF1E5F85
BDDC7CD9
3F8C9553
BE0FC1DF
BF3345BF
BEBF22C0
3FB556FC
3F263C43
3F7DD50B
BF55AB7E
BE714984
3E0BA83F
BE149FD8
3EAC5176
3D32D2BB
3DB510D4
3EF1C5C5
BEE7583A
3F149635
BE85B61C
BEEEF45A
3EF83D79
3F5D759F
3EE46994
BE05C24C
3E6833C6
BE3AB431
BDA16D6E

