BDBC1CE7
3DD590C1
BEA12C28
BEB9FBA4
BCB9F98B
3EC280D0
3E012770
3ECC1E79
3E88D8A9
3F0F7CCC
3E4E3C97
BE8B19E7
3EFF1993
3D7A6BD7
BC5F19D6
BF7F2DC3
BDB035BD
3D765FD9
BEEDB878
3D75F3D8
BECAFA72
3DA6A5D7
BD6C6690
BF02047D
3D003EEA
BDD009B3
3DB2D2BB
3D41743F
BE44D1E9
3E237692
3E17B246
BE14180D

