BE072713
3E3AB25B
3F339AAE
BE0DE1E3
BF04AB2E
3E09641F
3E5C8084
BDF2D6ED
3E89782D
3EAFC0F4
3F4B0963
3E8E23D1
3F1C8766
3F1E5C4F
BE708D4C
3ECA1B5C
BC70F16F
BE3DAF08
3EA25700
3ECD564B
3ECAFCF0
3EBD53CE
3E6C4828
3EE2237D
BF325ACD
3E8DDDD3
3F88E7EF
3F1D7ACC
3EE17354
3E4BEB9E
3C0DB057
3F259FF5

