3E301648
BF48F6AD
3C890B41
3F3C1388
3E950614
BED1BAA1
3F15F5BE
BE9763A2
BD39A06A
BD3649D4
BE618091
3EAC37A4
3EE27CE1
BCA8F191
BDEE0221
3EDE7C07
BD8EF3D4
BE737DA6
3E8D0353
BE95ABC1
BEAF2A17
BF7BC6B9
BE1F3733
BEBAD384
3D2A7158
BE91D10B
3F745B29
BEA9BE0A
BE66C615
3D408206
3BE8AF81
BDD94856

