BEECC943
BF275F70
BD981F10
BEB85187
3CFCED91
3F7C6530
BF10CDD9
3C5002E2
3E69A416
3EF6EF5F
BEA99C9D
3E963583
BF1445DD
3CD4F9C2
3FB0E52E
BE7E23F2
3EF710AA
3ED70521
3D00639D
BE1CB3A2
BF1015C2
3E1C7432
3F145836
BF603904
3DC060FE
3F5CAF71
3F4AB474
3F0A3DB4
BE3B9778
BF15171E
BF1060DD
BE89FC2B

