BF275AB8
3E971737
BF039C84
BE60EE4A
3E5B6BF4
BF56C1E3
3F39BD51
BDD16B12
3E72DFD7
3F09FFD6
BF55B74A
3E8197A2
BDBFD263
BF0E2D62
BEC1565C
3E19C1F8
3E5A8DA8
BF043F1C
BEAB2D4D
BE522CCB
BE1BED74
3F805D4A
BF0C346E
3E6E0A42
BF51D27C
3E844370
BD29984A
BF4FE7C0
BA4E91C9
3DB631B6
BED27A63
BE31A006

