BF0FFEA0
3F0342EE
3E089A02
BBA3E7D1
3E4EFA1E
3EF83DFF
3EF63ED1
3E79A30A
BF2B4FF8
BC80E8C9
BFD74E5D
BF800DFE
3F146413
3E26D8B2
BE2E9707
3EC5C875
3F4C61B7
3EC43F81
BE3DD723
BE4D08D5
BC4A85CB
3F8E0FF5
3E9BCF92
3F62131B
3F74ECD9
BF04722A
BEB6FB8F
BDCD5736
3E05AAB4
BF4A6480
BE44A72F
3F8EA0E4

