3ED79570
3EB084A5
3EABA2BE
3E446801
BE92A9F8
3E3F1E4B
3F21E311
3DE101F3
3E159C06
3F6F721D
3C7AA476
BEA2C908
BDB001D6
3F461AE7
3F188BB9
BEAFE586
BED28B8F
3E06F0D0
BF48BD77
3F21C66D
BF15204B
3F156C0D
3EA6E697
3D9CD5FA
3F78D1B7
3F0583E8
3BF1BAC3
3EF6AAF3
BE128E93
BF31D95E
BF0FCA43
3F6023A7

