BD915C64
3E910A13
3E39E908
BF489EDC
3E17A312
BF1B9464
BD84A05E
3D987DF6
BED31401
BEEBE8FF
BF66BE7B
BF186CDB
BF0F2346
3E57BC3C
3E88D7BF
BF1F9DB2
BEC16BBA
BE872A17
BD834FC6
BED7B203
3E949C91
3F2D5454
BF0CF54D
3EADEF85
BDF3DD12
3D0FF759
BF560FA1
3ECD82FD
BEF484B6
BF1F3754
BF42DF0D
3F23E61D

