BE1A615B
BC70307F
3DD1AC15
BF1D6441
BDD3AB43
BE7F605B
BF5C5BE2
3E983622
BF0FA54C
3F793F8E
3E0B89D7
BF11DAAD
3E3A0989
3F42FBA0
3E3794EA
3E5D377E
BDDAB218
3E2565C3
BF131CEB
BDE216C6
3EDEFCDF
3F2A9425
BF1DDBDB
3F059243
3EE52546
3E2552E3
BEB4983D
BEE7C19C
3DFB9629
BE54E4C9
3D79B888
BDE5E354

