BF00FC50
3D27179C
3FA5FA98
BE1B3312
BEB98A87
BE5E260B
3F680421
BEC698DD
3EBE2ED3
3F88C1B1
BCAC0E7C
3F4871C5
BE3161A2
BEDE7408
BE845133
3F0D33D3
BE1D783E
3E99BC34
3ED5B20C
3F1253CA
3EC6978D
3D4CA81A
3E83311A
BDB3311A
3F1EF09E
BE25D0B7
3DFEB314
BF05740C
BD34C4CE
3E9D19BD
3BAF9229
BEAEAF25

