BEBE8DB9
BF422F06
BEFA5AAB
BFEABA73
BC810625
BDBFE9FB
BF645A4F
3F214174
BD8C985F
3F08A6A8
3EF21FB0
3C22E7F7
BE8E61D0
3C0769EC
BC97E34C
3EAF95B3
BE6E73A3
BE4F27BB
BE0DF2AA
3EFA7957
3EFB79B7
BDC30121
3D7443D4
BE4D7D39
BEB2CE25
3F80A7E7
BF8B715C
BD39E061
3EDD4A5E
3EFFC808
BF4A2856
3E1AAFFF

