BF2DD1E5
3E8246E1
BD76F9FD
BEA3BBA5
BF16DB83
BE58DC55
3EDB2789
BEFF2474
3EDE9EC3
BF4FA57F
BEE48B65
BCF1E083
BF0B2C30
BEEEA8B9
BE8401A3
BF5B2BFE
BD8FD2A6
BF3565C3
BC7F1D82
BEFA22F7
BED17B53
3D2030C2
BEDCBD55
BE42FB1A
BE701D9F
BDBB34A4
BE5EF9DB
3E5F91A3
BEE777D1
BED12AD8
BE195BBC
3D45C033

