BF224042
BE2E696A
BDE5436C
3C46DE76
3EFD61F6
3F120E52
3EEBF5D8
3CA54E6E
3F6A3583
3FA6F45A
3E1FB7E9
3C1439DE
BD9F00AC
BEF6D7E9
3996FEB5
BD0CD317
3E11272D
3D7CD9A5
3E8D1548
BE45F3D8
3EA31B58
BE99BC12
3E928177
3E643A21
3F4A19CA
BEED204B
BE395FAB
3ED89B0F
3E57B9E0
3F3BB507
BF3DCD4F
BD8630EC

