BE1AB580
3EA8BA62
3DDEDA66
BE04EDB3
3E8D1E75
3F3EDC4D
BDCFDB0A
3EF6CA04
3E6DFCA0
BD88448D
BEA3F9C6
3EA51F60
3D4DB489
3DAEB3DD
BE0F8B9C
BEF420F7
3E143138
3EBF9F23
BE9F4A56
BE70E12F
BF27B081
3DB9F666
BE06AF47
3EA39820
3D9C6973
3E3734B5
3EA14877
3DE656AC
3E50EE07
BDDE7B81
BE1046C7
BE936B2B

