BF946EDB
3E8A107B
3E7E5E68
3E2E9143
BF06D688
3E35FF61
BE010A57
BD9B9629
BDAED139
3DD12125
3E99FBE7
BF49436C
3D83B795
3E021FF3
BF2D904B
3E449774
BBF82F51
3D0986FD
3EFF05EA
BE51B9B6
BDE8E0CA
3EB8561D
3DE77469
BC8A7C5B
BE0E5259
3E8B1EC1
BE1F8488
BC5CB578
3EC31898
3F211538
3E9D5B8A
BE9EF912

