3E14AA11
3F108E7A
BE2070B9
BEA04C8C
BEBCD706
BEC8E475
3D553155
3F418149
BE2A4D2B
BF0A5DAF
BF15272D
BDB43201
BEB119CE
3C4B07D1
BF0F266C
3F4E52F0
BF0B6439
3ECEDB0E
3DFD2392
BEB567DC
BEA68427
3F10D024
3DA04EA5
3AE77920
BE97268D
BE98F4F9
3ECD7668
BF30ED5F
BEE56ADF
3F8F3376
BEBD2114
3E8B1572

