3D1B64E0
BF36B4FA
3DB76252
BF363993
BEC2569B
BF8159B4
3EAA6FA4
BF51AF7D
BE5BD9CB
BF40944F
BF2E8EB4
BEB30A91
BE5B317F
BEA8B7E5
BF0548ED
3EAA90EF
BDAAEEA6
BE9030C2
BF0805C4
BE9C0A28
BF232AAE
BE9FA26A
BEC9C561
BFCEA034
BEF52978
BE377532
BF43F66F
BE8C8C93
BEC9DE6A
BEB0A0B2
BE2F67B2
3C06C227

