3F09713B
3F403CB0
3F93BE88
3F5D12CB
3DC487BA
BE44D6A1
3F0AE0D2
3FD0A351
3EE2E686
3F69CDC4
3DA2C7FC
BE9CD573
3E00E23B
3E43F35A
3F2A0243
3F3075A3
3E34F6E0
3E4C2374
3EFB3355
3EA8D3F2
3F4DE732
3E1E5E68
3F991B1E
3F90370D
3D111ADA
3FCA0F88
3E9178B3
3DD3E2D6
3E1A41A2
3CBE0371
BE150BD8
3E77DD01

