BF1944BB
BF334B30
BC907315
3F4D3B3A
3EFEF5A9
3DF4F2F1
3EC98373
3E852157
BE5831AD
BE0960B7
BEB35393
3EB3504C
3E0CF56F
BEDF190D
3EBDA188
3E62B064
BEBAAC75
3F02C700
BE282D38
3F596FEB
3EF01CF8
3E84B48D
3EFAB325
BF5279BC
3E1F954F
BE1A7EFA
3EB249A1
3F27DC6A
3F981893
3E069D30
BE82A0EC
3DE6290F

