3C90795F
3E885575
3E0D31FD
BE5814D7
BD92CF96
BD8D01C1
3E617508
3EE42D6B
BD300150
3C813661
3D30A1BE
3E2BB731
BE1A12F9
3DE943E1
BDCA2014
BDE321A3
BE56E0D2
3F1B963A
BCA43782
3D938716
BDF97BB7
BE617375
BD66F60E
BD8C953A
BE927ED8
3C9DE269
BE404C8C
3DD06898
3C755DE6
BE8EB9A1
BEC75925
BD48C500

