3DE76D98
BDD205BC
3E56583F
BCCBEA4F
3F114318
3CD71088
BDE670E3
BDCD5B68
BDB10343
3DD0EA9E
BE880A7C
BD8FA3FD
3DC7E38F
3DA38A7E
BE001F75
BDC9784F
3E53C85C
BD502689
3C921683
3DD2F87B
3C8383AE
3EB766C7
3DAE4A7B
BBAF46AA
BE3B341E
BD90BFA1
40303411
BE0147F1
3D8E66CB
BC5C1616
BD18298D
3C095076

