3E0C9B84
BF548A9C
3FBA71AC
3E25CA2A
BE87E77D
BE9EE2EB
3EC1CE8E
3EE911AE
BE6C4EF9
3DB6B873
BF9B2EBE
BEFEDC7F
3F0F302F
3E6BD167
3E2B8FDE
3EDC8DA0
BE603DDE
3D9AD42C
BDDBE985
3D0E379B
BECF357E
BE21B542
3F0573EB
3F06220C
3BB15726
BF5D52D2
3EB98B72
BA9FC6DA
BE47279A
BE5B9885
3E81F46F
3E2B0532

