BEEF3344
BE11B3AF
3C1C347F
BEF522A7
3EAFB0D5
3DFAB3AB
3F183B2E
BF6F75EA
BF57C148
3F5218DF
BF0A3982
BE9B506E
3EA4D6E4
3E48C500
BE8182ED
3F2826CC
BEABC409
BCC00325
3F0ABE9D
3E99DCD7
BEA8854D
3F2C852B
BF14FDD2
BF66719B
3F619FF5
3E6398E9
3EE54802
3F54635A
3F64FBDB
3F1F6AD7
BF0F17F0
BEE1ADC9

