3E8A1533
3EDBC0A0
3E8BCE85
3DFD0FA6
BC09A88B
BE0DB339
BF19E3DA
3EE9DDE3
BD6E9CCB
3D4E27E1
3D8A6EB9
BDF6B873
BE55BAB2
3E31CD1C
3D9084E8
3DB64A5A
BE9AE600
3E85562A
BD087768
BE34ABE7
3D24E486
BEA1B75A
BD46E6DA
3EA1F234
3E1F138C
3D066B1E
3E0A54C5
BE6D6A59
BD3EC786
4035DB6A
3E4E07E6
3D8EE5AC

