BF28A340
BEDB8C54
BF879FDC
BD0EE49F
BEEF9852
BF2C9C2C
3EC26ACA
BEC1B563
BEE4F0FA
3EB4FDB1
BF9B3062
3ECC2E77
3F90F7D3
BD77BE12
3EDE4606
3E0F5F4E
3DCAF923
3E2EF284
BD4E325D
3F950A70
BE005A71
3DDE4C51
BEC52BB2
3EAC96CC
3E9919CE
BE3034B1
BDEA1D75
3F412F1B
3F49F278
3F00C426
3F110E45
BE934528

