3E71D14E
BF1708EE
BF73399F
3FEEBBB2
3F0CA87E
3F7392E2
BF11B585
3E86FC9C
3D41743F
3F0A936C
3EECBBC3
3F4844BF
BFE0EE39
BEB63DA3
3F301765
3F2E2EE4
BE8C792D
3FA6D55A
BDD15B57
BFCB62AE
3E9E223E
BE153B4B
BF160A0F
BF867022
3E8D3C58
BF60157F
BEBFB04F
BF432DD3
BEC8ABF7
BF265461
3EEB85E8
3E8F79EA

