BF153006
BE119C9D
BE362CFE
3E12502F
BE2FF2A1
BD81F96A
BDD2E6A7
3EE11F71
BD151A43
3B158D9B
BEB1C9B4
BEB7B84E
3EADD7ED
3DCA0664
BF63C88E
BE5E7925
3E10DB6A
3D265ADE
BF0980C3
BE1C471B
BE5688BE
3DB05964
3E6F57F7
3ED9AE92
BE925A68
BDD884C7
3D1C2F40
3DAAB368
BD4ABB45
BE1728A6
BE9955B4
BDF653CA

