BE32ED35
3EE490C5
BE7DA61E
3E5D1AEB
BD27FB26
3EC52114
BEB21D32
3F46D917
3E3144CC
BC5AF07C
3E2A8DEB
3F15C4DB
3E482C6F
3EC30835
3E059818
3E02B9D4
BF041062
BE38B439
3F08CF9E
BE71F645
BF02619E
3D219B91
BDE861E9
BEB93DD9
3ED3C4F4
BDFFD04A
BE6322AF
BF266F50
3E9D1090
3E31233E
3F2D2E30
BE88A351

