BD1D4F9C
3E591926
BF462B06
3E5DED29
BD8216C6
3F1A3162
BF326DCE
3DD4E875
BE8BFDF8
3EDE8944
BF49288D
3F57E6B4
BFBAA127
BD19578A
3DD24D90
3E34E50C
3E59FE87
BEC155B4
BE3CF52C
3E6B8562
BD46748E
3EED783E
3F1A704C
3EA72863
3F69E860
BE939410
BEC12429
BE8543AF
3F279EE0
3E81C23B
BE95BAD4
BED8F7FD

