3F5F23DD
BED9C044
BEA9D389
BE8181BF
3E275105
3E49E8C4
BE61409A
BE7A0408
BDE120E2
BF3B5632
3E7BDEC6
3ED8BFC2
BE63B646
3DDEC919
3EAC9F51
BF59058E
3E34EA07
3E8D425F
3DEAE6C9
3D0E0978
3E1E4ABE
BD8704BC
3D93AEEF
BEDF9874
3F1C6F58
BEE1AD43
BE849603
3F8674C1
3E7CA687
BF764346
BF7F51CE
3F2E1C7A

