3F43B04F
BE951633
BF672053
BEC31A6D
BE79DE05
BE3ABE6A
3ECD5A3A
BD1FA54C
BEA1A32B
BFAC0792
3DF3FC01
BE7528AE
3F94E3DE
BF87C8FC
3EA114B1
3F404103
3E9E989A
BEC7507F
BE17229F
3F531401
BE57F8CB
3F2AE02A
3F11CDA3
BEF04CAD
3E4F88FD
3F36C68B
3E03CD57
BC2C3A86
BE019F80
3EFE3E8E
BD749492
BF0AA1E8

