BE4CEAAF
3DCA643D
BCC399B3
3E6435AD
BF0B87AD
BE664D7F
3F981B7E
3E8CEDB3
3DA8C36E
BDC52C5A
3F11E9F2
BEB015E4
3EA0A9DF
BE964841
3E1F1306
3E9DD2AF
BE8BEA2D
3EA5460B
3EBEE760
3F541B43
3E5D0397
3F415422
3F7B6C16
3F5A0E95
3F8EBB77
3D0DCB9B
BEE356B8
3EC1C561
BF1E9CBB
3F36A52F
BE3E54F8
BEEB1A6D

