3CABA16E
BED699A6
BF201909
3E19B739
3B6E6B83
3E74067D
BC17FA5D
BE5EB639
3E7FE9B8
3E9A4335
3E513E3E
BD05F9DF
BD09AED5
BCBB18DB
BC8B73D2
3E75870E
3E0D1783
3D9991BC
3EC18E11
BDBF5BE6
3E0C7B46
BA3BF50E
3D9D5E4A
BDC83904
3E13D039
BD2734F8
BC1A847B
3DA3A323
BDCD5172
3E9A8ED6
3DF24207
3BFA4830

