BEC5B164
3E7D4F59
3F713405
BD90FBEC
BE57685A
3C1E1B09
BF4C9B41
BEB723CD
3D4508B3
BEF71173
3DA01BCA
3EBBC98A
BFCA5C57
BDAE31D7
BEC6E45C
BBADB403
3DDA4DF4
BEDE2DE8
3DB38A3B
BF6C2A02
3DA87B14
BF69B563
3C2A2E3C
3EDE7A53
3BCA361A
BDE22C45
3E80064B
BE3B42CC
BEA1FFB5
BE7C4157
BEEF481B
3DA1E604

