BCD247CB
3DBABEAD
BE388EBD
3E3BE554
BD3D77FB
BEFD41D9
3F7CA8E3
3EB47022
3D84BF4D
3E510CF6
BF681C71
3F7302E6
BEE17247
3F2A3F79
3CB10BA6
BEAB0C46
BF0A934B
BDCEA5B5
3E7EAE5C
3F4B4D49
3DD4E875
3EA05B5B
3D5085F5
3C9B66F9
BE948B44
BE9B7F7C
3CAE31D7
3EF992C9
BF0C3F60
3E22D730
BE7FB763
3E6430B1

