3E0074A7
BDED46F6
3DA3F9A5
BD0F6F09
BEAB295F
3C91F2DC
3EA654D6
BE7CE033
BE537543
3F370282
BDA9363F
BE80D75A
3E445C79
3EA70564
BD86149C
BF2D1612
BED3DF8F
3C3417CA
3D68DA7F
BDA0BE51
BDDD30AD
3E970CFE
3F042774
BE3302F7
3E8382A1
3F0DF5BE
BE7BCEC8
BE0C3159
3E2576CD
BEE5219B
3F40DC01
3E38B1DD

