3DF18A01
BD1DD096
BEF90ABB
BF79FA44
BE9580E5
BF855F78
3E4F383F
3DE0B567
3E700863
BF5CEBCC
BF94ABE7
BE0948DC
BE0A6506
BE1EAC00
BE5D97B3
3F74AB1D
BE5F99C4
3F3AEF70
BD27B1C0
3ECAC29C
BE8702E6
3E59AA61
3F069271
3F24DD0E
BF92A183
BF7DC3AD
BD5D4307
3F387DA2
3BE7F6F5
BF0E98BB
BF04E5F7
BEA63498

