3EAB63F5
3E01ABD2
BE0DED29
BD9FBBD8
BE219DED
BE27279A
BD93A605
BE967D78
3E3DED29
BC5B76B4
BE121D54
BD930F06
3EADDD4C
BBA808C8
3E97AA26
BE52788E
3F73239A
3EDDED07
3866AFCD
BDF01B86
3D8E7792
BD938822
BC464346
BE5AEB3E
3C538CDA
BE74690E
BE80900C
BB5EC1C2
BECF314D
BCBABC94
BD8DD053
BCEAAF36

