BECF0F9D
BEA7EC35
3EEE1933
BE91CFDD
BD926FA4
BF044CF0
3E36045C
3F291516
BE9A84BE
BF0F0186
BF54943E
BEAF7447
BE63E857
BEAD4867
BD861AE7
BE2A7158
BF52C29C
3F05E7FB
BE9B0A4E
BEEE7DDD
BED41227
BEDBD641
3D8D3E0C
3E9240B8
3EEFE23F
BF92D45F
3D8D538B
BECBFCCA
3F35919B
BF3E235B
3F185921
BF58769F

