BE2C1CE7
BF3B09B7
3E8539DA
3D55B78D
3CF1AC15
BEBD6F33
3DFAC92A
BD971C97
3E22A6F4
3E43504C
3EA0B418
BF4FC0D3
BE3C15D3
3DA97D8D
BE659429
BF090EED
3EDF2F77
BEB4D856
BF7D510D
3DC413DB
3ECC8B00
BDAE1933
3E491AB9
BC7ABDA1
BE8A415F
BE1D2568
BE09D6F1
BDECCAB4
3E32702A
3E8F10AA
3E57CB71
BC60CE0C

