3E7D905C
3EC24CA5
3CCE6C09
BD12D773
BE8EFF7E
BE64C0DF
3DF3C89F
3E9CA2FD
BDC87011
BD355FFE
BC591AB9
3CF53C58
3CB708AB
BE3E774F
BE32EDBB
BEC89CA2
BF0EA055
BE66EDAB
3E035E74
3E7D11BE
BE6C37E7
BE028028
BD9D273D
3D660A20
3E38954A
BE920770
3C88CE70
3A55629E
BDB1C3AD
3D163348
BDA615A9
BE326D8B

