BE1B7D41
3EC751CE
3CA81345
3F4F3BEB
3D0898F6
3E1E0BD4
3CEA5B53
3F1DE18F
3EE887A9
BCC6A5D7
BE76366D
3ED98AEC
BEDD80E5
BED3E5DA
3ECEE02A
BEA7AFEA
3CFBE76D
3F4883FD
BDBA47AA
3E5D4C77
3C6D3D86
BEC5C2B1
3E766F50
3F677857
3D3F0DC7
3EB291FB
3F341DE2
BF89B552
BE86A162
BE647842
BE3F0670
3E229B6B

