BEAC8627
3E920D35
BEB1DC0E
BD0F1C32
BE86D374
BBFC7A3A
BEAB838C
BE139EAE
BE4A5EBB
3D47D1BB
3EC5E721
3F17866E
BDA8943E
BE2FF60A
BEC8F909
BEC4E1C6
BE733A8A
3EAD4717
3E41A933
BF4888B5
3EB928BF
BEC86FEF
BD774EEC
3DC9C993
3EA07A29
BE2C43F6
BC040182
3C565E46
3D299D88
BDF4F69D
3DD6238E
3DAF29D4

