3D8C319C
3F13548F
BEC88377
BE23DAF9
BF029281
3E225A25
BD7D8CF4
3EC23DB4
BDB9ECF6
BE2BD87B
BC7EDA66
3FA0892B
BEAABF34
BEED7C4E
BF2C4114
BD1DE58E
3EFD6C0D
BF2324EA
BE598BF8
3D125BB8
BE1E8816
3A8E368F
3E6FA11B
3E9D45E9
3E71CEF2
BDF65237
BBF661F2
BE10ADCD
3EB96CE8
3E57B6BB
BF29B3E1
3E893DFB

