BED67B5F
BF37C0E4
3F04C6F8
3C1235F8
3F45EF0F
3F1E5FC8
BF201462
BF26465A
3E90DBAD
3E154D1F
BD984F4C
3F179086
BD825397
BE8B86B1
3E26909B
3F35F751
BD010B63
3E888C61
BF23E814
BE72E7B4
3DCA44C8
BE958106
3F01884C
3E04894C
3F358C8F
BF1C0347
BE534EBA
3D47D912
BF4EBA8C
3E04506A
3CB09A67
BF0C8DF3

