BE200714
BEDB8412
BF44091C
3F16683C
BF10DFBD
3E72EBE6
BEF73BEB
3E352D66
BF3EF199
3DF09204
3F023748
3F9430A9
BD0882F1
BE09E237
BBF6A50D
BE13F4AA
BEBB6A62
3EBA2318
3DE97D07
3E8111CF
BE0EE88E
3ED38822
3EC4D1E9
3BCE1C58
3C569D30
3E8191DE
3F0B7931
3F2B35C2
BF13049B
BECB6912
3F097364
BEFD0119

