3F108D4C
BEA71759
BE25479D
3DAC2614
3E8F2F55
BF19B08A
BEE4E465
BF0AB303
BE521965
BF196723
3E01D324
BB49EA9A
BE7D2242
BE18F6CF
3F5D81BF
BED5DEDF
BE66262D
3F2161B3
3CB76B3C
BF1BD06C
BF332E27
3E4321A3
BE2A643D
BF6BD849
3E9D668C
BE827829
BD8EF4E0
BCE8BE2F
3DB65237
3EADC8B8
BEFB6D01
BBF38822

