3E80FA37
3E8BA909
BCE006D1
3D8E7360
3EBA82C7
BCD71D1D
BBAAC96D
BEE53F3A
BE941659
BEF369BA
3E099525
BE8B6545
3E8C4B6F
BE2270F4
3ED33DF3
3DFD590C
BD8DF506
3EBC60AA
BF13E308
3E018E75
3E940A07
3DAC80C7
BCEBACF7
BDADD26B
3D9EABBD
BE35E3DA
BF1374DE
3C85015C
BEC5C140
3E29B457
BE7D49D8
3EFDF97B

