BF886E76
3EDC2C80
BEC05682
BF7ED374
3E9AEA96
3F810518
3F8692B4
3EA489D2
3DE45FE1
BF13F26F
3F50FF86
3D662CBA
3FC958EA
BEC0BD88
3DCEF6F9
3E22A8CA
3F7C739B
3F8250D7
BDCBCF92
BF789268
BC830E3D
BF32D645
BE23E921
3F8C7FB2
BE048063
4004C21E
BFD89A67
3F3A9D41
BD08D089
BE6E5B85
BF38AC8E
3EC36806

