BF19CB36
BD144780
BE66D118
BC43009B
BCA98677
BD8F41F2
3E57CE10
BD04B2B7
3F6DCA3A
BF84FB98
BD33EFF2
BED420B4
BEA6E47E
3DE2B1F7
3EEE4085
BE56F651
BC7911CF
3E6D3283
BE946717
3E86CF20
BD9530CF
BE53B96B
BE86312F
3F14F302
3F3C43E5
BCCC2939
BD98AA86
BF10852B
BEB5C7EF
BE9BD0E1
BF1A2D0E
BEF7E9D9

