BF37BB84
3DCD3847
3F6680D0
BEAFC0F4
3E445133
3DAD8A11
3D54801F
BECD1A22
3F02E9EE
3F523444
3F277415
3E5E68A1
BEA0578E
BF04E065
BE9790DA
3F3B20C9
3E220EA6
3F032CF9
BF0116A9
3E98D34A
3EE48E04
3E90A41A
BF8BBF48
3E6815E4
3EF64ABE
3EDE33AD
3F3CD530
BF045532
BE71E471
3F6D0343
BE7F6406
3EAA2164

