BF2A6FB5
3F0DEDAF
BF86C6EF
BF031AD2
3EFAF167
BF8D05C0
3E3424A2
BE34B231
BF51C369
BE0F7A4E
3E8631D7
BE7BFB59
3F0CB8BF
3E1A6B0E
3E053501
BDDFE2A4
BE321533
3EF12104
BE814185
BE4A62ED
BE0AA540
3E1D4131
3F596F11
3EEC6A1A
BE395B79
BC811D36
BE94FEBD
3F4CC576
3EB9AD86
3ED19D24
3EDA5248
BEE173B8

