BB2A4335
3E682ECB
BE87D86B
BDC7557A
3F0A598E
3DC3D039
BE5FD502
BD914A0A
3DF662FE
3EE76599
BD99A73B
BDBB95A3
BEB31E9F
3F11BD84
BEA3AEEF
BE9C0F88
3E5BF8FD
3E949A56
3D9B39E2
BEFE073E
3EB32767
BDF61E4F
3ECC27A6
3F1AAF14
BE42DC2B
3EACA9CE
BE15C0BA
3F5A64E5
BB7483CB
3FA31EFB
3ED1AD64
3E2B6AE8

