BD51F927
BE1742DD
BE8BCEC8
BE001E26
BEB0F7DB
3DB2AF9B
BF0B0707
BF071E9F
3E1356DA
3EAB399F
BE87776C
BF731E08
BF142FD7
3F537B7C
BDD18CA0
BDE27FA2
BE96AB9B
BE838FDE
3E92A0CB
BE93C2FC
3EBAFEE7
3F2216C6
3D4B44A2
3E67F173
BE24E37A
BE147AE1
3E39F1AE
BE082A56
3EB30F28
3F8BB86F
BEB474DA
3F2E1112

