3E7892EF
BF5236C1
3D3499D0
3DC866A1
BF02BF01
BE78201D
BF298330
BDF46D40
BEAF2DA1
BF316799
3BD2AA5C
BEBE555C
BD24345D
3EADD00F
3B068BA0
3DC62ED3
3DC3686A
BF056345
3CE2F9CA
BF4966AE
BEA0F606
3DFF3387
3D7A0946
BEBD7E89
3EA4193B
BF4EC190
BED556F3
BDCDE5D2
BE4A62AA
BF26686E
BF2D5897
BEF67CAF

