BE074107
BE0F52FC
BE9787F0
BE98B392
BF0D8D37
BEDDD97F
3EF28A1E
3EE71C97
3E3AB799
3EF88E58
BE98023A
3EA80E8D
3D34916D
3EF50A24
BF1FAEDE
3CDFB939
3E95C24C
BE39157B
3D1B9D80
BD0CEE5B
BF2ECBFB
3E0223E2
3E3275EF
3B95F245
BEBB6A62
BE69DD3C
BD82834D
3EC96378
BEE35547
BE054F37
BEE16BFD
3DB6659D

