BE1D2C38
3E3080B6
BAABB44E
BD8E9143
BDC21AF8
BE74DF05
3E8B7D63
BF3C4556
3D40F777
3F1F82A1
BDA6AB9B
BF2A73C5
BF8EAC86
3E3F0BF2
BE53BC90
BFEEFFC9
3F771D71
BEC18FA3
3D002081
3B01908E
3E0BA94C
BF30EDB3
BCFD156A
3F0865C7
3E9BA0E8
3F0B078E
3EE7CD8A
3ED2E03B
3F7EF252
3F550F73
BEF9FC8F
BE75E679

