BF3CDF48
3F4ACEDD
3F70C0F0
3E6F52FC
BD17AAAC
BF309507
3E56BD6F
BE9DE354
3E10C8CD
3D24E8B8
3CDEC1C2
BF6927F6
BEF8FADF
3DD7CCC0
BE82018A
3F9A0243
3E5BCA10
BF0A91B8
BE9BE814
3EA5525D
3D1475A3
3F252FF5
3EDAABCD
3DB7646B
BECBD2D8
BF13AE58
BCEE45C3
BF37D6E9
3E442CC3
3E960C17
BFC45AB4
3D88E92D

