BEAD1B71
BF683937
BE0D17C6
3E61A587
3EEBD556
BDE38327
BF7A515D
BE1752DB
BD8134CE
BE1F8C65
BE6853C1
BCD097C8
3E724AF1
3E299E0E
BDFB1290
BE34D50F
BF63BA77
BE240F24
3E118117
3E73C537
BEE54281
3E70C847
3C8E0A85
3E849BA6
3DF1F81A
3DBEE45C
BEA0D973
3CFE0AC8
BDA393EE
3F563BAC
BEEC853C
BDEDA986

