3F03D4BF
BF8C800F
BF478445
3F72C354
3F32CE36
3EFD0DAE
3EF25615
BFB1D85A
BF5BFCA8
3CA862F6
3E3144CC
3F457F30
3E9E3B47
BEA48F75
3E46B442
3DE1EDE1
BFECC176
BDD171E3
BEBFB656
BF14A56A
3D3E414E
BF1EF45A
3F8D9208
3EE49A99
BEF35EB7
3F5E05BC
3F01B1B8
BE50C77E
BB1DCF89
BFA24E16
BEA9F751
BF3197B3

