3D35C5B5
3EB04AD8
BC9CD1C8
3CE2B496
BF160221
BDA9D063
3ED2541E
3E8C3AC9
BF14EE6C
BF3F80AA
BE0B08DD
3DA8BB0A
BEDDF15A
BDCC17EC
BE618762
BF04285F
3DBC63AE
BEF2CABC
BF2F3ABD
3F0067F1
3DE2C5E3
BB1B0EE5
BF7D872F
BEDE685E
BE8360F2
3FA35A53
3F2F0037
3D5EFD87
3F410C1C
BF84A034
BF128B2A
3E162E4D

