3F55D12D
BD9F5276
3E8DFC7E
3CAE9681
3C21CEF2
3EC661D0
3ECF32DF
BE767B1C
3F260419
BED66C6E
3F52FA2F
3E55E9E2
BF095BEE
BE12ED78
3F0EEF0B
3E1B5FA2
BE139A7C
3E8BFA09
3F08F074
3F08F4E8
3E8EDE76
3F613C68
3E15019F
BF1BC8B0
3F446477
3E8BA344
BE27F130
3EAF049B
3DF5E204
3F3E2952
3DDB8A1A
3F93DB6E

