BE1EEFA2
3E1136E7
3F27A7B9
3F36705D
3D8A161E
BF680BAA
3EE77B18
3F910C78
3BF2F124
BF5746ED
3DB933E3
BF7992DA
3F336CBE
3E8C6349
BD63E8DE
BF2247DC
3EADEFE9
BE03675E
3F3892CD
BDA2D9CF
BEAD61D4
3F6A19B9
3F138317
BEB19C9D
3E4599AA
BF5C3C5C
BEADEA46
3EE83B3F
BE9D53EF
BF496430
BE964B23
BD88240B

