3EFFB118
3E539CD8
BBF1B25F
3E1E2AC3
3EB1F751
BED57E67
BE61183B
BA8E368F
BB8E581D
BCDA5764
BE8FBEFD
3D96F5CB
3E703F70
BDACB9ED
BE856DA0
3DEEDCC2
3EE27DAA
BE022CCB
3E8C957D
BE3615EC
BE7CA255
BDCE7792
40245DFF
BCCE2F38
3EA755DE
BF036252
3DA1ABD2
BDBE9D95
3E3A7265
3DFB0DD8
BECBF63C
3D7B83CF

