3F307A6C
BF47533F
BE1BD662
3EDD7AFF
BD5B5526
BED6557E
BE7D3F9E
3DC3C07F
BD2AE4B0
BE65119D
3F2F9D4E
BE361566
3E1FC372
3DA02081
BE9D0E78
3E91973E
3D5681ED
3EB5E2EF
3EA48733
3D72074F
BE4B2AF1
BF15C64C
BE6FA509
3C46F7A1
3D0B70AC
BED8DAE4
3B5EB0FB
BF29C62A
3F043298
BEF20360
BD91CDA3
3EC7210C

