BE589B0F
BDC0713F
3E6C3E32
BD1FB0D5
3D0D3AE7
BF76A844
BDD37C9A
3E3DFA01
BDAFC04D
3D7FFBCE
3E43AB00
3E43BEEC
BC8728E9
BBB53D64
3E796CC6
3DE8D9F9
3D816830
3CFAB325
BDBC3611
BE6D466F
BDC5F527
3D054CDB
3ED1E860
3E38750C
3E7DED6C
3EECC038
BBF56649
3DCC0486
3C8F96E1
3DECCCCD
BDE4577E
BDCE336A

