BF846898
3EEA8AA4
3E9B15F9
BE54180D
BF30B5CC
3F36C0D7
3E455F35
3E16327F
3E2DA0E0
BDD5C63B
BE59D4D8
3F38B89D
3F03264A
BE622A6F
3D9EB52D
BEB31E7E
3E0826AB
3F25F98B
BD60913A
3D146D40
397FDA40
BD19EE89
3D11BF7B
3F260B70
40002A84
BF516217
3E45E17E
BE886B7B
3F3B3461
BDFF1844
3F15F01C
BE097785

