3E8A2142
BD99B563
3D1084E8
BEE94C23
BDCFEC57
BCC5EF63
3F43F7CF
3E390753
3D7C8B00
3E4B9C73
3E70E886
3E0361DD
BD00C309
BE1986FD
3D93BB84
3EE9ADEB
BDD739F3
3CC1E365
3DA62E4D
BE1F2841
3C1ED7C7
3D612A52
3E35A815
BE330835
3F290108
3CDC8B87
3E9F20EA
BE8FDAC7
3E1862F6
3D6AA2A1
BE7EA316
BF0947E0

