3E853AC5
BE25BEA1
3D8DB1EA
BD088E7A
3DC6948A
BCE2845A
BEC52FC2
BE86F566
BF10CA92
BF3A2025
BEAE8D76
BD0C3B0C
BD91A976
3E28DE2B
3EEF3B86
3D924852
3F0C2614
BD1C7EF1
3E9D9EE9
3DFB4BB6
BF17E708
BE14ACB0
BF36F08D
BF75104D
BF2A4DF4
BE23ED0F
3EFF7DFA
BE62120E
3E6987C6
3E774D9C
BED02C91
3DCE3CDA

