3F1000B9
BDD231C6
39991794
BF36ADD6
3DF28955
BF8C22FF
3F550CF6
BCCCB189
3F1C5932
3EADF330
BE62D491
3F02645E
BE81FB61
3E99906D
3E440D0B
3F27DD98
3F2020D5
3CE99631
BF10BE83
BE956BEC
3F88E3DE
BEEC1A8B
BF150ABB
BED2CADE
3DB7C244
3E8DD15F
BD94AA97
BD9C4B0A
3F7CA116
3F7D92B8
BE40F2BF
3F1F9A9E

