BEBC04EA
3E508249
3D7F2A17
3E6CED0B
3F10FF86
BF2A02C9
BDD05D96
BC0E8640
BCE05EE5
BF275B60
3E8002E2
3E850225
BDDDDDB1
3DE93426
BF24A7F8
BE8CCF07
3EC804B8
3DB97892
BD99A1FD
3E0B6567
3DDCE52E
3E6BB7FA
3D94EA8E
BEE81EAC
3E319653
BE720297
BEF4BA30
BE510FD8
BE08E821
3F10ADAC
3E8F776C
3EC657FB

