3E17B741
BEEB70AC
3E96CDAF
3EF9B34A
3D835D68
BEBA3550
BE2C4FC2
BF71F0A2
BE31C10D
BEAFE9B8
3E47021D
3F7A1D21
BEB57F52
BBF4F0D8
BD657C91
3F4D22FB
3D64BFD3
3D9B3AEF
3D70F27C
3EE8FD1A
BEA2E792
BE0985AD
BD308787
3E3F826F
3E23B8A2
BE83990B
3DD44029
BE60CCFF
3E8CA6CA
3E14898F
BF0BD4AE
BE7157AC

