BEFC70A8
3E959903
BEF6F955
3DB63FDD
3E9A50D7
BD3FFCDB
BEEBC148
3CB0B9DC
BEF5A5B9
3F17FD50
BE80F4B6
3F35CB68
3C5B2B34
BDFD86A9
3C50A676
3D83FD50
BE75796C
BF0355DE
3D984556
BDFAF7D3
3F29AF3A
BF320525
3F084C8C
3EC18809
BE30941D
3F53137B
BF5C548B
BEC501E2
BF42A705
3F0BC84B
BD50DF16
BC1CBAB6

