3F74430B
3DF25E57
BF5897D9
3F4C40D1
BD24F54D
BDD53D64
BF0778BC
BD04955B
BD0C6F7A
BEBF4363
BE9CE209
BDBEFC7A
3DCCCAB4
3EE68F2A
BEADD1A2
3F50C027
BF6B2AAE
BF6FFB16
BF0EDA34
3F46353F
BF39141A
3ED53D43
3F0A0A20
3EFAD9CF
BF89A4D7
BF5CF54D
3F28BD55
BC7C115E
BED7E564
BE474D59
3E839885
3E811149

