3F0676EA
3F38A02C
3D4FD5CB
3F135DDD
3F061BC1
3F90FEAC
BEED2C7C
3F8C4589
BE23979A
3ED23444
3EB01BEB
3DCE6320
3F10473D
BD81BFBE
3F26599F
3F757BFA
3EC46AE4
3F4F53A4
3F190236
BD817A89
3BA42AED
3F17DBB1
3E9AFF8F
BEA0E065
3EA85A92
BCE965F5
BC465C70
BEE848BF
BE4BBDBE
BF0A6F0D
3D644524
BE212232

