BF582470
3F387C20
BF7281DC
3E31CD1C
BE1CEE18
3F915BEE
3F46774F
3E821FF3
BD291D9B
BF70BC06
3F13E3D2
BF205155
3E1EEC7D
3F46D80A
3F40D2A2
BDCE7792
BCE17C1C
BCCBA0E8
BD2337A8
BD60C06A
BE0E5365
3EA2D85E
3FB5C6FC
3F90D6D4
BE9FF690
3C78726D
3EEB2F01
3EB917B5
BD16CA47
3C942F62
BE335C18
3EF2599F

