BE03B42D
3EF81323
3F0495D1
BF0DE14C
3DB736CE
BEA76F8F
3F180C95
BF53F1B7
BCD17614
3D055A7D
3D45AD54
3EC4CB9F
BEAA26C4
BEA5C359
BD09539C
BF02EBB3
3F1AE86C
BE8FFB05
BE9C9C6F
3F086FEF
3BCD8559
BDC6C43F
BF75F4B2
3E397CC4
3EF1131F
3E4CF788
3ECE920C
BDAB367A
BF421ED6
BD11EFB7
BF73BA77
BE9D423E

