3F324591
3E40EA5B
3E0070FC
3E27AF21
BDDEAFEE
3E451C19
3D1F8099
3E8AAFBC
3E8752DB
3E1B13E0
BE76F263
BE844391
BDB3F078
BD2A64C3
BF372086
3EAF7A2D
3E306467
BDFF16B1
3E15E02F
3F2B1855
BE436156
3EAA15FD
3C86FCDF
3D5B2B34
BCBCF0B7
3E54D877
3E230447
BE80FADF
3DF000C9
BEB8F5E4
3EB6B67C
BF2AD45F

