3F699381
3DC552A0
3DABD018
3D96D118
3E2FAA04
3D059C8D
BE9AFBA0
BDD44DCB
BE5A8933
3C9C0A8D
BF5F8034
3EBF8423
3E3454DE
3E9FDE0D
BE0EA20A
3D3634DB
3E1B4FA5
BCA16E7A
3D191255
3DBB0575
BDC77708
BED00C74
BEC94877
BFA60232
3F20E9D5
BFB2D30F
BE92C01E
BEADB707
BE330553
BC445458
BEC2A844
3DE53869

