3DD691A7
BE1E37DF
BE6AB4B7
3E327525
3E7B2B34
BEE912BA
BE705B3A
BE9A4B12
3D6619DB
3CB70CDD
3D960AE9
3DE51330
3E76809D
3E57BE55
3EE1563B
BED79182
BBF87AD1
3EF9B6B3
3DBDED6C
BD9B4246
BC427200
BD8A6330
3E978A8F
3DB59253
BE835914
BE0B1705
BE407A29
3B6FCBD5
3D12B5E5
BD473259
3F1B4BC7
3E171F79

