3D23D1CC
3E108A26
BD867CF2
BEF63822
BD036C9C
3EA4B125
BF368F2A
3F85C6B0
3D042C80
3D85F41B
3EFAAFDE
3E9382E4
BF41A390
3F85BEF5
3EA48C72
BEDD690A
BF0C3E53
3DBB76B4
3D8A148C
3E0AACDA
BE661E93
BD18F606
3E9B397E
BEB037B5
BF84955B
BF4F293D
3E9D3650
3F19B3D0
BE9D8772
BE247842
3F8F568F
BE04894C

