BF826994
3E83CDDD
3EDFAB11
3F2DF96A
BDC5753A
3EB9F948
3E2D3F5B
3DED0CC3
3D9931CA
BE8FE88A
3EA8BEB6
BF68DBAD
3F5D1138
BE067903
3E2E7FF6
3DC03A32
BDA4CB5C
3ECFA5D3
BE5BB7B7
BF366751
BE2DCF03
BF08C500
BF17A722
3E4D71F3
3EE01CD6
BF4C3F4F
3F0BD3C3
3EEDCF03
3EE6DCC2
3EF15726
BF2B383F
BDC75925

