BCC95E18
3E9C2FA5
3D7E670E
3F8190FB
3F1908F6
3C0BAC71
BE03369C
3F54E9B4
BCC90E67
3F82AD0C
3F5ED938
BE3A5376
3CA74E23
3ED317CE
3F18E582
3E0E7EE9
3EB72FDC
3E588590
3E482385
BE585A4F
3E403969
3F6EDB51
3F86D2FE
BE7140DD
3F6A80D0
3F53F25E
3EABF4ED
BE2440AF
3E8EFAC6
3E6A69BE
3F060419
3DEC7FBB

