BCDBE5DA
3B749492
3D93A14D
BC3CD78C
3D0344C3
3DABBA13
BCB7AE58
3D8B851F
3D0AD256
3D36CBDA
3D9CBDDC
BDD1D0C8
3CC27A63
3D39D1B3
BC814D72
3DF56085
400AD053
3CB89720
BD71B585
BC74C6E7
BD56F21F
BD3487FD
BD040D0B
3D4FE048
3DA59A74
BD078E9F
3D88D10F
3BD67770
3C9F2346
BDCFF759
3E14A59C
BD2604E2

