3E204B3C
BEFC9FF9
BE058BC6
3F3150B9
3DDC66D3
BC81ABD2
3D93F0FE
3F522A5E
BF44B03A
BDED7625
3DA6B830
3E06D938
3E8581CF
BF210A57
3F0B545C
BDC1DB01
BE85B50F
3EA56627
BED7FE6D
BE0869C6
3E86DA01
BE4AE361
BCB4330D
BED5F352
BC9D4D83
3DAECC81
BD2EAC86
3E62EA53
BDFDC9C5
3E5367E4
BE78E864
3E60813D

