BF51EC81
3F2331D3
3F244D34
BEC0EBAB
BE3C5B08
BF2A3DB4
BF447454
3E94FCA4
3DA23E18
3C070974
3ECD7D9E
BE8B708B
BE81EC92
3DA3C4B1
BE32B27D
3F3B2E06
3EFB76F7
3E4DF58C
3E915AF3
3DF4A2BA
3DA792D1
BEDEA140
BE67AF64
3F30F2D0
3F3D9770
BED43D68
BF09600F
3EAAF7D3
3E69C454
3EA8B0F2
BE210CF6
BF692FC2

