BEF387DF
3CECAAB9
BEA97460
3E4BD513
BF35DF87
BED7B9E0
BE801388
3E929153
BE791644
BF51D00F
BE0BD902
3F5781B6
BE42A8CA
3E9B4268
BE9743C8
BC2DF2ED
3D67BF62
3D946562
3E51BA3D
3F08EBEE
3EC1D474
BD92849D
BE3295EA
3FBB10ED
BE69FFD6
3BA02B84
BE915C85
BE88AE75
BC6A67E8
BDE650E7
BEA577B8
BE7FE5C9

