3E8D66AE
3EBDB707
BEAB6567
BE4A0019
3E824F44
3EB1EECC
3D41D191
BED7B4C4
3F417529
BF895E0F
BF02A012
BE5BA94C
BE98F084
3DE53F3A
BDFBC233
BEFD8B82
BD6E05CD
BC846845
BD4436FC
BEBB0100
3E358080
3E26BB56
BE45347A
3C92A305
3E4F7D74
BEC08659
3D4C48AE
BF17AF42
BF0228AA
3D93C793
BDDB3205
BF3DDDB1

