3B87C201
3E67E3D2
BD75D788
BE8E2132
3DEE9FF1
3F2C5198
BE31CE29
3F6980E5
3EE6F0AE
3E61D085
BDB8127B
3F0FC298
BE342246
BE1C7B89
3EAFDFA0
BE9DD26B
BDCA276B
BD674C0A
BF153DA7
3EAA6E33
3E890492
BDE36651
BD89667B
3E277AF6
3E8D204B
BDC69729
BEAC3809
3E2DB37D
3EB9A4DF
3ED15B14
BE8B239A
3D179075

