3ECCAAFC
3E973A36
3DCADEEC
3D34666F
BE5EA811
3B84944F
3E8923A3
3E5E785B
3F22493D
BE291F2E
BF7DF224
BF49C9D6
3DA6BDF5
3E028390
3EC8435F
BF5E7F1B
BEF90646
BF318506
3F07E271
3F10F1E5
3DA5E248
3ECAB40F
3E8B7E4E
BEDBD945
3E81B7E1
BD5D1D47
BF30CEA3
3EE5F5AE
BEFC712E
BFAC5658
BF5A01AC
BE8C1CA4

