3EA911AE
3E4101F3
BEFD9F2C
3D8DC7EF
BE20E5A3
3F887360
BCF4A98B
3FB4ABF7
3DE2C908
3F23E7F3
3D80578E
3F7D42A2
3DE68987
3E10E560
BEA4855E
3EE76790
3E7F416C
BF13B257
3F05FBF8
3CFE9B7C
3F8432A9
3F90501E
BE156580
3F09D6BF
3F8389DF
3EB366D8
3E2E7CD0
3F89F855
3DD947D0
BD07AAEF
BE3DEF41
BD66E760

