3EDE2F38
BF06425B
BE7C59FB
BFAD6EF0
3EF1695E
BF14E810
BE120F6F
BF5CF29D
3EEA6DF0
3F537889
3D8D666B
3EC54328
BEE7D695
3ED0FB44
3DBEAB36
BE359967
3E3C4B0A
BEE2C647
BE8C5D42
3F1F3062
3EE6277C
3CA52AC7
3AAD2568
3E8FE3B0
BE2DFEB9
3E3FCC5C
3F0F1184
BE3E45C3
3F648BEB
3E07C6FC
BE9BCF70
3EF08D6D

