BE9ED0B3
BF0A0C8D
3E7DA87A
BE91F40A
BE71AA3F
BF3757D6
BD03BC4D
3F6BB257
3E971D82
3DEC4BD3
BE8D2BF5
BED0E62A
3F5F8F04
BEBFF067
BE5B838C
BD11C6D2
3EC09B30
3F2F8C43
BE33076C
BEC9B34A
BF51001D
BE7BDB1A
3F982468
3D5B4246
BF03620F
BE5582DC
BE923704
3E81F948
3F2CF3CB
BE33F962
BD8BFA8F
BF3055A8

