3EB268D3
BECBBF2F
3EA19631
3E730121
BFA0E6FB
BE1E542E
BF91B646
BF8B6220
3DEFE692
3E21209F
3F4F6CCE
3D93DEA4
BD08B546
BBDDF00B
3EE306E6
3EFC41FF
3E9E09BB
3E543C3A
BF01FB94
3F8AD003
BF691CB0
3F2D94F2
4098C92C
3DA3DB3C
3D78A7E7
3E99EC2D
BEE102DE
3DF1A2A5
BF15285B
3BB1F688
BE1B6F1A
3E526F61

