3E897679
BED79011
3EF576CD
3F28ADCD
3D98BA41
BDF16D2B
BD76848C
3F19F2AA
BDFCA07F
BCB7A5F4
3EAD6367
BBA20147
BD562F16
BEE14270
3EB4A926
BE5A16A5
3E3A1A50
3F0DD218
BEABA8A4
3E851DCD
3E9A6DF0
BDC4B557
BDC2DE87
3EFCE011
3F115A3A
BE4BDB1A
BC628241
3E80C75C
3CBA6EFC
BCE01798
3D6C6046
3F2FB6ED

