BD4215BA
3EC8CF18
BE208D09
BF71AB5C
BE338CDA
BCFD6302
3EBA77E6
3E348A16
3ECDD8F9
3E69C1F8
BEE3A92A
BED8DF16
BDCF06B3
BE4DD26B
BE37AE14
3E1409A2
3ECABB45
BE8A8EF7
3DDAE361
3E452B0A
3DD7B9E0
3DB62952
3E776FB1
BF0A2036
BEC80779
3DEEBE59
3E65AEE6
BE922D0E
BD19E732
3F06E536
3E0B2D90
BDEEB463

