3E24BE40
3EDA60B3
3E9741AF
3F43A190
3E8D2D23
3E1E4474
3F285597
3ED33743
3EC9CE07
3F7C59EA
3D3AA9B5
3EABEAB3
3D7FCEB8
3E4C8217
3DAD6777
BDBA5FC8
BC36C376
3E5A6C5D
3EBB97DD
3CBEFAE8
3F2D783E
3F03C1AD
3F8AB567
3EF3B3A7
3DCCCC47
3F9C03CD
BDA48733
3D92DC2B
BE6B76B4
3E2D2807
3EE7C7E7
3ED6E8B0

